#include "sine_model_data.h"

ai_handle ai_sine_model_data_weights_get(void)
{

  AI_ALIGNED(4)
  static const ai_u8 s_sine_model_weights[ 1284 ] = {
    0x28, 0x54, 0xa7, 0xbd, 0x5c, 0xd3, 0x2f, 0x3e, 0x23, 0xec,
    0xbb, 0x3d, 0xc3, 0x2c, 0x01, 0xbf, 0xe8, 0xc9, 0x10, 0x3f,
    0x91, 0xb2, 0xba, 0x3e, 0x35, 0xdb, 0x06, 0x3f, 0x1a, 0xef,
    0x04, 0x3e, 0xdc, 0xe2, 0xdf, 0xbe, 0x66, 0xdc, 0x86, 0xbe,
    0x80, 0xdb, 0xbb, 0xbb, 0x15, 0x4b, 0x22, 0xbc, 0x3c, 0xe3,
    0x0b, 0x3f, 0x60, 0xd7, 0xe3, 0x3e, 0xd0, 0x53, 0xcb, 0xbd,
    0x34, 0x44, 0xcf, 0xbd, 0x00, 0x00, 0x00, 0x00, 0x1c, 0xb6,
    0x3e, 0x3e, 0x4c, 0x0e, 0xf4, 0x3e, 0x00, 0x00, 0x00, 0x00,
    0xc6, 0xfa, 0xd5, 0x3d, 0x85, 0x8d, 0x09, 0xbf, 0xba, 0xba,
    0xda, 0xbe, 0x07, 0xf0, 0xae, 0xbe, 0x00, 0x00, 0x00, 0x00,
    0x00, 0x00, 0x00, 0x00, 0x00, 0x00, 0x00, 0x00, 0x37, 0xcf,
    0x7b, 0x3f, 0x9a, 0x06, 0x1a, 0xbf, 0x58, 0x2f, 0x29, 0x3e,
    0x00, 0x00, 0x00, 0x00, 0x00, 0x00, 0x00, 0x00, 0x82, 0x8c,
    0x93, 0xbe, 0x09, 0xe8, 0xa7, 0x3e, 0x15, 0x1e, 0xf0, 0xbc,
    0x27, 0x53, 0xc7, 0x3e, 0xa2, 0x4a, 0xce, 0x3e, 0xb0, 0x0b,
    0x04, 0x3f, 0xda, 0xfb, 0x81, 0xbe, 0x70, 0x20, 0x17, 0x3f,
    0x5a, 0x14, 0x44, 0x3e, 0x3f, 0x7b, 0x9c, 0x3e, 0x56, 0xae,
    0x2e, 0x3e, 0x10, 0x54, 0xb1, 0xbd, 0x1e, 0x4f, 0x08, 0xbe,
    0xd9, 0x69, 0x6d, 0xbe, 0x30, 0xb0, 0xc1, 0xbe, 0x9e, 0x2d,
    0xc3, 0xbe, 0x99, 0x71, 0x5c, 0xbe, 0x65, 0x52, 0x85, 0x3e,
    0x9f, 0xa6, 0xc3, 0xbd, 0x12, 0xbb, 0x48, 0x3e, 0x34, 0x16,
    0x04, 0xbe, 0x40, 0xa8, 0x16, 0xbe, 0x9b, 0x48, 0x9e, 0xbe,
    0xf0, 0x51, 0x84, 0xbc, 0xa2, 0xa0, 0x0a, 0x3e, 0xc0, 0x26,
    0x88, 0xbe, 0x98, 0x6f, 0x5a, 0x3d, 0x7d, 0xd8, 0x9c, 0xbc,
    0x68, 0x00, 0x60, 0xbd, 0xf0, 0x06, 0x5f, 0xbd, 0x94, 0x5b,
    0xbf, 0xbe, 0x34, 0xc7, 0x97, 0xbe, 0xdc, 0xbc, 0xd7, 0xbe,
    0x6b, 0xb7, 0xaf, 0x3e, 0x1c, 0x09, 0x0d, 0x3f, 0x4c, 0xb9,
    0xce, 0x3d, 0x33, 0x59, 0x8e, 0xbe, 0xbd, 0xdf, 0xbf, 0xbe,
    0x8b, 0x80, 0xa1, 0xbe, 0xb5, 0xba, 0x89, 0xbf, 0x64, 0x28,
    0xab, 0x3d, 0x9c, 0xaf, 0xba, 0x3d, 0x9a, 0xb0, 0x73, 0x3e,
    0x48, 0x13, 0xca, 0x3e, 0x92, 0x55, 0xc0, 0xbe, 0xee, 0xe0,
    0xbc, 0x3e, 0xb4, 0x92, 0xfc, 0xbd, 0x98, 0x68, 0x5e, 0xbe,
    0x68, 0x14, 0xc7, 0xbd, 0xbc, 0x3d, 0x34, 0x3e, 0xf5, 0x8f,
    0xb8, 0x3e, 0x00, 0xda, 0x7d, 0xba, 0xb4, 0xf7, 0x3a, 0xbf,
    0x6a, 0xf0, 0xa2, 0xbe, 0x1d, 0x98, 0x7a, 0x3e, 0x18, 0x93,
    0x3e, 0x3e, 0xee, 0x46, 0x30, 0xbe, 0x86, 0xf2, 0x49, 0xbe,
    0x22, 0xdf, 0x0c, 0x3e, 0x69, 0x29, 0x1d, 0x3f, 0x52, 0x26,
    0x68, 0xbc, 0x02, 0x7c, 0x20, 0xbf, 0xdd, 0x82, 0x4f, 0xbe,
    0x41, 0xd0, 0xb6, 0x3e, 0xe4, 0xc1, 0xe2, 0x3d, 0xe1, 0x60,
    0x37, 0xbd, 0xd6, 0xfd, 0x2c, 0x3e, 0x8c, 0x8f, 0xc2, 0x3d,
    0x60, 0x3d, 0xb5, 0x3e, 0xd0, 0x88, 0xa0, 0x3d, 0x04, 0x36,
    0xc2, 0xbd, 0x18, 0x42, 0x42, 0x3d, 0xe7, 0x50, 0xce, 0x3e,
    0x20, 0xb9, 0x8a, 0xbc, 0x8b, 0x3e, 0xcf, 0xbe, 0x0b, 0x32,
    0x0f, 0x3f, 0x29, 0x1d, 0xaa, 0x3e, 0xf0, 0x97, 0xe2, 0xbd,
    0x11, 0x39, 0xb4, 0x3e, 0x55, 0xbc, 0xd9, 0x3e, 0x7b, 0x84,
    0xac, 0xbe, 0x66, 0x8f, 0xb6, 0x3e, 0xbe, 0xfd, 0xfc, 0x3e,
    0x3c, 0xeb, 0xb8, 0xbe, 0x2d, 0x4e, 0x19, 0xbf, 0xbf, 0xa1,
    0x62, 0x3d, 0xf9, 0x3b, 0xd9, 0x3d, 0x03, 0x54, 0x83, 0xbe,
    0x40, 0x28, 0xc9, 0xbd, 0x13, 0x1c, 0x8b, 0x3e, 0xe0, 0x02,
    0x9a, 0x3c, 0xed, 0x84, 0xe2, 0x3e, 0x78, 0x9e, 0xf5, 0xbe,
    0x95, 0x48, 0xf0, 0xbe, 0x80, 0x0f, 0x4e, 0xbb, 0xba, 0x8c,
    0x57, 0x3e, 0x34, 0x70, 0x93, 0x3d, 0x6a, 0x12, 0x2b, 0x3e,
    0xe6, 0xde, 0xcc, 0xbe, 0x90, 0x06, 0x82, 0xbe, 0x88, 0xf7,
    0x8e, 0xbd, 0xf0, 0x69, 0xf0, 0xbd, 0x14, 0x8a, 0xb6, 0xbe,
    0xac, 0x8b, 0x9a, 0x3d, 0xa0, 0x18, 0x01, 0x3d, 0x5c, 0xd5,
    0xcc, 0x3d, 0xd8, 0xb4, 0x7b, 0x3d, 0x23, 0xd5, 0x7d, 0x3e,
    0x06, 0x21, 0x9a, 0xbe, 0x4f, 0x65, 0xd6, 0xbe, 0xab, 0xa7,
    0xd2, 0x3e, 0xe9, 0xfc, 0xbe, 0x3e, 0x70, 0x78, 0x75, 0x3d,
    0x43, 0x39, 0x19, 0x3e, 0xbd, 0x37, 0xe6, 0x3d, 0xc3, 0x13,
    0xb4, 0xbe, 0xb7, 0x23, 0x8d, 0x3e, 0xa7, 0xa2, 0xe7, 0x3e,
    0xf9, 0x5f, 0xb6, 0x3e, 0x4b, 0x82, 0x9a, 0xbd, 0x86, 0xa4,
    0x43, 0x3e, 0x16, 0x0f, 0x62, 0x3e, 0xc8, 0x19, 0x2e, 0x3d,
    0xd5, 0xcd, 0x4d, 0xbe, 0x8d, 0x3c, 0x8f, 0x3e, 0x15, 0x69,
    0x8f, 0xbe, 0xc4, 0x76, 0xb5, 0xbe, 0xfd, 0x45, 0x96, 0x3e,
    0x00, 0x1b, 0x30, 0x3d, 0x1b, 0x11, 0x71, 0xbe, 0x44, 0x53,
    0x1e, 0xbf, 0xdd, 0x3a, 0xa9, 0x3e, 0x7d, 0xb6, 0x0e, 0xbd,
    0x9b, 0xe7, 0x87, 0x3d, 0x87, 0x15, 0x92, 0x3e, 0x49, 0x5b,
    0xb4, 0x3e, 0x0e, 0x34, 0xa0, 0xbe, 0xae, 0xd6, 0x11, 0xbe,
    0xee, 0x14, 0xc7, 0xbe, 0x38, 0xbb, 0x44, 0xbf, 0xe5, 0x13,
    0x93, 0x3e, 0x5d, 0x5d, 0x8b, 0x3e, 0xb6, 0xc8, 0x1b, 0x3e,
    0x61, 0x9c, 0xd3, 0xbe, 0x48, 0x77, 0xec, 0xbd, 0x24, 0x2a,
    0xa6, 0xbd, 0xdc, 0x65, 0xd6, 0xbe, 0xc9, 0x5e, 0xb2, 0x3e,
    0xe8, 0x2d, 0x9a, 0xbe, 0x8c, 0x97, 0xd8, 0xbd, 0x68, 0x55,
    0x5b, 0xbd, 0x7d, 0x19, 0xaa, 0x3e, 0x40, 0xf7, 0xfb, 0x3b,
    0x3f, 0x14, 0xbd, 0x3e, 0x64, 0xb6, 0xbb, 0xbd, 0x4c, 0x79,
    0xea, 0xbd, 0x7c, 0x04, 0xc7, 0xbd, 0x6a, 0x16, 0x7a, 0x3e,
    0x3a, 0xa3, 0x7d, 0xbe, 0x66, 0x19, 0x42, 0x3e, 0x28, 0xa9,
    0xed, 0xbd, 0x41, 0x3d, 0x89, 0xbe, 0xbc, 0x8a, 0x93, 0xbc,
    0x4a, 0x53, 0xa4, 0xbe, 0xee, 0x64, 0xc8, 0x3e, 0xef, 0x34,
    0x8b, 0x3e, 0x96, 0x57, 0x38, 0xbe, 0x44, 0x05, 0x09, 0x3d,
    0xc9, 0x19, 0x44, 0xbe, 0xe4, 0x8c, 0xb6, 0xbd, 0x94, 0x65,
    0xaf, 0xbd, 0x40, 0x4a, 0xab, 0x3b, 0xe8, 0xe6, 0x39, 0xbc,
    0xe2, 0xa1, 0x82, 0x3e, 0xb8, 0x08, 0x24, 0x3d, 0x44, 0x56,
    0xca, 0xbe, 0x79, 0x8c, 0xa9, 0x3e, 0x44, 0x12, 0xd4, 0x3e,
    0x20, 0xae, 0x67, 0xbe, 0x66, 0xd8, 0x53, 0x3e, 0x91, 0xb1,
    0xa5, 0x3e, 0x9f, 0xe1, 0x97, 0xbd, 0x63, 0xb2, 0x2c, 0xbd,
    0x90, 0x27, 0xd6, 0xbd, 0xe5, 0x7a, 0xda, 0x3e, 0x40, 0x45,
    0xa4, 0xbb, 0xfe, 0x02, 0x1a, 0x3e, 0x6d, 0x16, 0x30, 0x3e,
    0x13, 0x26, 0xf5, 0xbe, 0x26, 0xdd, 0xa8, 0x3e, 0x8c, 0xda,
    0x84, 0xbd, 0x9b, 0x01, 0xad, 0x3e, 0x00, 0xc4, 0xe9, 0x39,
    0x08, 0x67, 0xda, 0xbe, 0xbf, 0xb7, 0xb0, 0x3e, 0x16, 0xab,
    0x5f, 0x3e, 0xb0, 0x24, 0xc4, 0xbd, 0x06, 0x5f, 0x7d, 0x3e,
    0xd4, 0xc3, 0xa8, 0xbe, 0x17, 0xfc, 0xb7, 0x3e, 0x4c, 0x75,
    0x12, 0xbe, 0x42, 0xe0, 0x14, 0x3e, 0xdb, 0xe9, 0xda, 0xbe,
    0xd0, 0x30, 0x80, 0xbe, 0xf8, 0x1b, 0x52, 0x3d, 0xc4, 0x01,
    0x49, 0xbe, 0xa0, 0x21, 0x84, 0x3c, 0x1f, 0x80, 0xcd, 0x3e,
    0x25, 0xaa, 0xc7, 0xbe, 0xc2, 0x2c, 0x1f, 0xbe, 0xae, 0x20,
    0xa0, 0x3e, 0x00, 0xb7, 0xea, 0x3c, 0xe4, 0x3a, 0x29, 0x3e,
    0xde, 0x45, 0x15, 0xbf, 0x1b, 0x15, 0xa5, 0x3d, 0xe8, 0xe0,
    0x8a, 0xbf, 0x04, 0x43, 0x36, 0xbe, 0x1c, 0x27, 0x12, 0xbe,
    0x6c, 0x88, 0xda, 0x3d, 0x57, 0xdf, 0x88, 0x3e, 0x35, 0xa8,
    0x19, 0xbf, 0xf2, 0xb7, 0x99, 0x3e, 0xec, 0xe6, 0x62, 0xbe,
    0xc1, 0x72, 0x53, 0xbe, 0x67, 0xa3, 0xd0, 0x3e, 0xf2, 0x95,
    0xd7, 0xbe, 0xf8, 0x3d, 0x44, 0xbe, 0xca, 0xd0, 0x54, 0x3e,
    0x20, 0x62, 0x41, 0x3d, 0xf3, 0x62, 0x8f, 0x3e, 0x0e, 0xa4,
    0x2d, 0xbe, 0x38, 0x60, 0x03, 0x3d, 0x5a, 0x74, 0x26, 0x3e,
    0xc8, 0x6e, 0x35, 0xbe, 0xed, 0x17, 0xb8, 0xbe, 0x62, 0x6f,
    0x0a, 0xbe, 0x60, 0x95, 0x2e, 0x3c, 0x40, 0xae, 0x0b, 0xbc,
    0xee, 0xea, 0xbc, 0xbe, 0x10, 0x9d, 0x9c, 0xbc, 0x7a, 0x53,
    0x70, 0x3e, 0xd0, 0xdc, 0xe4, 0x3c, 0xb7, 0x04, 0xdb, 0xbe,
    0xe2, 0xf5, 0xab, 0xbe, 0x0a, 0x4a, 0xa2, 0xbe, 0x6c, 0x02,
    0xb5, 0xbe, 0xbe, 0xee, 0x6f, 0xbe, 0x66, 0x66, 0xbb, 0xbe,
    0xdb, 0xef, 0xb9, 0xbe, 0xd3, 0x8d, 0x87, 0x3e, 0x8d, 0x13,
    0xc4, 0x3e, 0xb4, 0x23, 0xd8, 0xbe, 0x6b, 0x31, 0xdc, 0xbe,
    0x11, 0xc7, 0xae, 0x3e, 0xb1, 0xb1, 0xdd, 0x3e, 0xe0, 0x52,
    0x3c, 0xbe, 0x20, 0x8a, 0x64, 0xbe, 0xbd, 0x39, 0x4f, 0xbb,
    0xc7, 0xbf, 0xcf, 0x3e, 0xb3, 0xda, 0xc6, 0x3e, 0x28, 0x54,
    0xa7, 0x3d, 0x64, 0x49, 0xe4, 0x3e, 0x25, 0x74, 0x81, 0xbc,
    0x30, 0xa4, 0x5a, 0xbe, 0x64, 0x63, 0xd5, 0xbe, 0x00, 0x00,
    0x00, 0x00, 0x89, 0x47, 0xb9, 0x3d, 0xcb, 0xf4, 0x79, 0x3d,
    0x00, 0x00, 0x00, 0x00, 0x06, 0xa6, 0xd4, 0x3e, 0x00, 0x00,
    0x00, 0x00, 0x00, 0x00, 0x00, 0x00, 0x97, 0xbb, 0xbe, 0x3e,
    0x0f, 0x6d, 0xbe, 0x3e, 0xef, 0x11, 0x96, 0x3f, 0x2c, 0xdb,
    0x50, 0xbf, 0x13, 0x3e, 0x05, 0xbf, 0xe7, 0xa5, 0x29,
    0xbf, 0xbb, 0x85, 0x62, 0x3e, 0x6c, 0xeb, 0x01, 0x3f,
    0xdb, 0xcc, 0xa3, 0x3f, 0xd2, 0xbb, 0x8a, 0x3e, 0xab,
    0x44, 0xba, 0xbe, 0x39, 0xef, 0xc0, 0xbe, 0x7c, 0x05,
    0x5e, 0x3e, 0xc0, 0xb3, 0x8b, 0x3f, 0x16, 0xb0, 0x78,
    0xbe, 0x70, 0x5d, 0xf8, 0xbe, 0xdc, 0x11, 0x6f, 0xbe
  };

  return AI_HANDLE_PTR(s_sine_model_weights);

}

